<unk>	0
<s>	0
</s>	0
▁	-2.69517
.	-3.59518
en	-3.7169
s	-3.72137
,	-3.86475
n	-3.91828
e	-3.92179
t	-4.04201
▁die	-4.18702
▁der	-4.27407
er	-4.49912
-	-4.63415
▁in	-4.65936
▁und	-4.66674
r	-5.01255
m	-5.1227
▁den	-5.23131
▁das	-5.26021
▁zu	-5.30708
▁auf	-5.32345
d	-5.35028
▁ein	-5.35479
▁mit	-5.37047
te	-5.41017
g	-5.41842
▁be	-5.45092
▁im	-5.49863
b	-5.52595
▁von	-5.55823
▁an	-5.5682
▁ver	-5.58139
▁ge	-5.61118
▁für	-5.62609
▁ist	-5.65584
in	-5.67608
▁sich	-5.68398
k	-5.68646
ung	-5.69368
▁er	-5.70342
st	-5.71627
f	-5.71902
l	-5.73518
▁es	-5.75393
▁aus	-5.76288
▁nicht	-5.80147
u	-5.80768
o	-5.81935
w	-5.82108
▁vor	-5.83212
▁dem	-5.84268
▁auch	-5.84413
al	-5.85405
▁eine	-5.87331
sch	-5.9069
:	-5.90865
z	-5.95055
▁nach	-5.95489
ten	-5.96123
▁bei	-5.96555
▁des	-5.98183
h	-6.01324
▁am	-6.01995
ge	-6.04706
▁sie	-6.08371
es	-6.11149
ä	-6.11447
y	-6.13766
▁über	-6.17612
▁um	-6.18198
▁als	-6.24285
ch	-6.26562
or	-6.27379
i	-6.28373
▁wie	-6.30381
▁(	-6.30567
▁werden	-6.30717
▁so	-6.30824
p	-6.31378
ü	-6.31555
an	-6.32233
el	-6.32331
▁dass	-6.33922
▁"	-6.35175
▁„	-6.35835
a	-6.3625
▁hat	-6.36466
“	-6.36685
ö	-6.38907
ar	-6.42171
le	-6.42821
▁k	-6.42864
et	-6.43964
ig	-6.44221
▁ab	-6.45315
)	-6.46002
ter	-6.47566
ur	-6.48203
▁sch	-6.4906
lich	-6.49073
▁war	-6.49891
re	-6.51631
▁h	-6.51802
▁sind	-6.52684
▁noch	-6.55677
de	-6.58727
▁w	-6.59094
be	-6.59633
▁einem	-6.60647
▁aber	-6.60935
▁wird	-6.60961
v	-6.61594
at	-6.64045
▁p	-6.65041
▁f	-6.65429
▁re	-6.66112
c	-6.66467
▁man	-6.67371
▁einer	-6.67673
▁diese	-6.68249
is	-6.68657
▁haben	-6.71307
he	-6.75138
▁mehr	-6.76048
der	-6.78063
zu	-6.78312
den	-6.78914
▁zum	-6.79841
▁wir	-6.82004
▁da	-6.82682
ver	-6.82703
▁unter	-6.82804
▁einen	-6.83428
us	-6.84537
▁ko	-6.85778
▁sein	-6.8728
it	-6.87729
iert	-6.87994
▁g	-6.88763
"	-6.89213
▁nur	-6.89483
cht	-6.89749
▁b	-6.89828
▁–	-6.89899
gen	-6.90747
ra	-6.90771
▁oder	-6.91497
un	-6.94548
se	-6.95086
ck	-6.96532
▁bis	-6.96613
la	-6.97204
ger	-6.97894
▁durch	-6.9796
▁gegen	-6.98131
tra	-6.98584
▁st	-6.98778
ro	-6.99091
ie	-7.00287
ungen	-7.01484
ich	-7.03599
▁wieder	-7.04415
▁sei	-7.06921
▁20	-7.06947
▁zwei	-7.07373
me	-7.08795
um	-7.0929
lo	-7.09296
igen	-7.09982
ein	-7.10062
?	-7.10215
au	-7.10353
em	-7.11602
all	-7.11631
▁wurde	-7.11721
ti	-7.11982
ko	-7.12105
▁ihre	-7.12362
ern	-7.13296
ul	-7.13522
ta	-7.14063
hr	-7.14728
ut	-7.1487
▁sp	-7.15924
kt	-7.16592
ür	-7.17176
▁corona	-7.17373
▁seine	-7.17771
bar	-7.19838
ag	-7.19886
▁un	-7.20378
ieren	-7.20768
ß	-7.208
▁ich	-7.21067
j	-7.22087
▁kann	-7.2282
stand	-7.22866
▁ent	-7.23212
sten	-7.24015
ab	-7.24401
▁alle	-7.24614
ing	-7.24967
rei	-7.25369
ol	-7.2538
ation	-7.26116
iv	-7.26796
ste	-7.27042
uch	-7.27064
är	-7.27098
on	-7.28051
il	-7.28092
li	-7.28525
arbeit	-7.29275
tag	-7.29607
▁zur	-7.29944
ische	-7.30256
▁hatte	-7.30431
ischen	-7.30602
▁seit	-7.30948
0	-7.31144
x	-7.31354
▁soll	-7.31771
ner	-7.32176
ft	-7.32931
zi	-7.33493
»	-7.33579
▁l	-7.33983
▁was	-7.34005
▁können	-7.34129
pf	-7.34815
rä	-7.34841
▁dann	-7.35643
ma	-7.36465
▁habe	-7.36604
▁schon	-7.36637
▁nun	-7.37215
ben	-7.37371
▁z	-7.37601
▁pro	-7.37712
ri	-7.39814
▁viel	-7.40399
▁menschen	-7.40424
teil	-7.40858
▁prozent	-7.40877
aus	-7.40991
▁wenn	-7.41005
rat	-7.41204
ir	-7.41849
recht	-7.41888
ik	-7.42923
end	-7.43873
ll	-7.44048
00	-7.44342
▁bundes	-7.44757
▁weiter	-7.44761
▁a	-7.4493
im	-7.4536
richt	-7.46061
▁gut	-7.46079
am	-7.46424
art	-7.46917
▁le	-7.47114
▁c	-7.4751
isch	-7.47865
wei	-7.47922
▁ma	-7.48108
",	-7.48359
vor	-7.48673
▁keine	-7.48959
da	-7.50302
sp	-7.50546
▁immer	-7.50627
▁me	-7.50839
und	-7.50975
gel	-7.51079
di	-7.5184
▁jahr	-7.5259
▁doch	-7.5285
hn	-7.53378
▁gr	-7.53599
id	-7.53621
tz	-7.54408
▁zeit	-7.54491
2	-7.54651
▁euro	-7.54656
▁fr	-7.5484
jährige	-7.55001
ien	-7.55028
chen	-7.55036
▁gibt	-7.5535
▁spiel	-7.55746
ler	-7.55951
schaft	-7.56066
▁bereits	-7.56301
fl	-7.56346
na	-7.56439
▁neue	-7.56916
▁sagte	-7.56954
ka	-7.57799
lt	-7.5785
1	-7.58193
th	-7.58662
ungs	-7.58684
auf	-7.58859
▁ra	-7.59177
innen	-7.59318
fi	-7.59468
land	-7.59577
zeit	-7.60009
geben	-7.60101
vom	-7.60538
ach	-7.60777
fe	-7.6105
nd	-7.61395
ha	-7.61483
ze	-7.61941
and	-7.62787
40	-7.63134
ad	-7.63214
heit	-7.63756
▁ro	-7.63955
60	-7.64386
▁viele	-7.64623
ist	-7.64824
ssen	-7.64963
gt	-7.65178
▁ihr	-7.65739
to	-7.65807
17	-7.66501
▁dr	-7.66506
ber	-7.66551
▁neu	-7.66755
▁hin	-7.66891
▁di	-7.67049
▁damit	-7.67112
mann	-7.67245
▁drei	-7.67514
▁br	-7.67655
▁land	-7.67713
as	-7.67958
po	-7.68195
lei	-7.68389
spiel	-7.68546
▁ka	-7.68764
▁ange	-7.68858
ort	-7.68912
16	-7.69042
lu	-7.69241
no	-7.69407
liche	-7.69477
äu	-7.70045
▁her	-7.70194
▁jahren	-7.70714
21	-7.71166
▁«	-7.71304
ken	-7.71868
mp	-7.72218
14	-7.72565
25	-7.73269
tion	-7.73603
ion	-7.73635
▁ha	-7.73772
35	-7.7382
che	-7.74458
45	-7.74474
▁polizei	-7.74543
80	-7.74813
form	-7.74883
90	-7.74883
▁ob	-7.74952
wa	-7.75071
11	-7.7525
▁fa	-7.75252
▁impf	-7.7532
70	-7.75357
ho	-7.75769
12	-7.75849
19	-7.75943
▁mi	-7.76016
▁jetzt	-7.76081
▁co	-7.76131
ak	-7.76172
24	-7.76328
20	-7.76397
ige	-7.76406
ell	-7.76476
▁pa	-7.76499
ende	-7.765
▁ba	-7.76596
eck	-7.76619
lichen	-7.76799
sicht	-7.76986
31	-7.77109
▁to	-7.77495
hl	-7.77588
af	-7.7769
13	-7.78064
kommen	-7.78208
▁dieser	-7.78375
ster	-7.78717
ör	-7.7879
her	-7.78948
▁sa	-7.79236
wert	-7.79295
ff	-7.79376
▁erst	-7.79397
▁rund	-7.79534
ru	-7.79707
33	-7.79962
▁bo	-7.79965
ang	-7.80111
▁dabei	-7.80309
ank	-7.80589
fer	-7.81108
38	-7.8123
hol	-7.81237
gehen	-7.8139
▁wurden	-7.81519
34	-7.81666
▁teil	-7.81691
▁bi	-7.8173
▁deutschland	-7.81841
berg	-7.81901
99	-7.82664
55	-7.82729
32	-7.83067
44	-7.83084
▁ganz	-7.83326
qu	-7.83463
49	-7.83486
ass	-7.83899
▁muss	-7.84218
48	-7.84277
23	-7.8429
36	-7.84326
75	-7.84385
isten	-7.84606
▁auto	-7.84637
46	-7.8479
37	-7.84897
22	-7.84911
65	-7.84949
30	-7.85084
39	-7.85144
53	-7.8524
hal	-7.85337
▁wo	-7.85432
59	-7.85479
43	-7.85597
63	-7.85619
die	-7.85629
▁sehr	-7.85644
pa	-7.85845
73	-7.85848
▁will	-7.86162
68	-7.86326
54	-7.86371
58	-7.86411
51	-7.86623
▁laut	-7.86765
47	-7.86765
reich	-7.86912
76	-7.86968
57	-7.87023
ni	-7.87073
67	-7.87145
66	-7.87186
77	-7.87213
85	-7.87261
sehen	-7.8732
▁3	-7.8737
▁gesch	-7.87375
52	-7.87475
26	-7.87525
lage	-7.87532
81	-7.87575
weise	-7.87598
95	-7.87665
61	-7.87672
64	-7.87734
41	-7.87811
42	-7.87972
83	-7.88118
50	-7.88258
56	-7.88274
91	-7.88304
69	-7.88333
89	-7.88404
71	-7.88689
ve	-7.88859
96	-7.8893
▁wer	-7.88938
18	-7.8895
28	-7.88959
▁ihn	-7.89191
mittel	-7.89291
94	-7.89395
74	-7.89422
84	-7.89427
92	-7.8944
heim	-7.89674
86	-7.89816
72	-7.90001
los	-7.90236
▁uns	-7.90281
ku	-7.90345
97	-7.90349
62	-7.90368
▁könnte	-7.90407
▁uhr	-7.9045
78	-7.90515
93	-7.90524
79	-7.9061
co	-7.90715
lie	-7.90753
fall	-7.90964
98	-7.90995
87	-7.91139
▁ersten	-7.9133
bau	-7.91338
▁mo	-7.9144
▁hier	-7.91584
vi	-7.91668
88	-7.91729
ick	-7.92026
82	-7.92236
halten	-7.9241
27	-7.92419
rie	-7.9257
ke	-7.92671
wä	-7.93149
▁waren	-7.93398
ität	-7.93488
5	-7.93524
▁na	-7.93586
▁ja	-7.9388
!	-7.93947
ia	-7.94112
bi	-7.9423
15	-7.94233
tel	-7.94435
ände	-7.94441
enden	-7.94561
▁selbst	-7.9461
▁mein	-7.94633
▁zwischen	-7.94924
▁stadt	-7.94957
weit	-7.95382
▁geht	-7.95551
keit	-7.9561
wir	-7.95664
pp	-7.95702
29	-7.95728
mal	-7.95871
▁worden	-7.9603
sel	-7.9605
."	-7.96398
nach	-7.96769
10	-7.96802
platz	-7.96821
▁andere	-7.97268
mit	-7.97426
▁müssen	-7.97945
minister	-7.9868
▁zurück	-7.98726
▁1	-7.98818
.“	-8.00264
haus	-8.00653
schutz	-8.00887
tage	-8.0133
burg	-8.01553
▁li	-8.0252
▁frei	-8.03132
hin	-8.03234
stellen	-8.03797
gang	-8.03987
ett	-8.04002
▁19	-8.04423
handel	-8.04719
▁sagt	-8.04873
ga	-8.05038
3	-8.05062
zahl	-8.05746
per	-8.05801
▁kinder	-8.05972
▁v	-8.05978
pass	-8.06136
iz	-8.0637
ill	-8.06747
nahme	-8.06871
wohl	-8.07014
▁etwa	-8.07084
▁weitere	-8.07131
▁se	-8.07709
▁möglich	-8.07964
nehmen	-8.08031
bra	-8.08298
▁groß	-8.08423
▁weil	-8.08677
▁sollte	-8.08701
anz	-8.0883
ieß	-8.09318
▁schul	-8.09379
▁aktuell	-8.09512
ziel	-8.09759
ierte	-8.1006
kreis	-8.10168
▁ohne	-8.10419
▁de	-8.10439
chef	-8.10542
zen	-8.10668
▁dort	-8.1078
stimm	-8.10786
▁konnte	-8.11036
▁bau	-8.11141
▁zusammen	-8.11333
▁unsere	-8.11393
folge	-8.11773
länder	-8.11929
präsident	-8.11948
▁millionen	-8.11948
▁fest	-8.12101
▁ausge	-8.12372
▁100	-8.1256
09	-8.12585
elle	-8.1261
▁4	-8.12812
04	-8.12901
bl	-8.13023
▁ex	-8.13198
▁vier	-8.13393
bo	-8.13692
▁kam	-8.13816
▁sonder	-8.14169
07	-8.14419
▁jahre	-8.14522
▁welt	-8.14547
▁sowie	-8.14556
▁ende	-8.14661
01	-8.14669
nden	-8.14748
▁dazu	-8.14882
▁landes	-8.15254
08	-8.15407
▁mal	-8.15649
haupt	-8.15723
▁du	-8.1585
ier	-8.16016
▁anderen	-8.16235
05	-8.16259
halb	-8.16718
lau	-8.16758
straße	-8.16867
▁eines	-8.16882
02	-8.16883
son	-8.1711
min	-8.17161
bahn	-8.17569
▁ho	-8.17579
06	-8.1761
▁macht	-8.17906
lassen	-8.18224
grün	-8.18337
03	-8.1876
▁2	-8.18794
▁wegen	-8.19065
▁unternehmen	-8.1909
▁allerdings	-8.19299
▁wichtig	-8.193
▁kurz	-8.19306
ki	-8.19517
regierung	-8.19579
▁seiner	-8.19996
wirtschaft	-8.20001
so	-8.20112
▁rück	-8.2022
app	-8.20342
▁haus	-8.20533
▁je	-8.20776
▁neuen	-8.20788
ard	-8.20826
fa	-8.20846
▁2021	-8.21127
4	-8.21302
sam	-8.21315
▁ki	-8.21462
▁fünf	-8.21649
werk	-8.21733
▁allem	-8.22074
▁abge	-8.22117
port	-8.22362
om	-8.22677
).	-8.23091
politik	-8.23361
fehl	-8.23534
jahr	-8.23722
▁vergangene	-8.24067
▁klein	-8.24156
fälle	-8.24756
▁früh	-8.24764
▁la	-8.25038
statt	-8.25046
kl	-8.25093
▁grund	-8.25343
sitz	-8.25419
hof	-8.25455
▁große	-8.25682
ph	-8.26225
▁wenig	-8.2628
▁mar	-8.2651
punkt	-8.26892
gestellt	-8.26991
▁schwer	-8.27701
▁kein	-8.27796
ment	-8.27905
▁derzeit	-8.2819
▁30	-8.28279
▁offen	-8.28318
▁montag	-8.28324
▁etwas	-8.28404
▁kommen	-8.28458
▁zahl	-8.28573
frage	-8.28611
ex	-8.28662
▁machen	-8.28822
log	-8.29163
▁berlin	-8.29413
▁monat	-8.29434
lü	-8.29436
▁schnell	-8.2993
▁einige	-8.30091
mmer	-8.30447
8	-8.30532
wohn	-8.30587
▁seien	-8.3062
raum	-8.30696
▁ihrer	-8.3076
weg	-8.30806
öl	-8.30836
▁werde	-8.30878
.000	-8.309
ba	-8.3104
satz	-8.31755
wand	-8.3292
▁hoch	-8.33072
pr	-8.33199
gruppe	-8.33535
steig	-8.34083
plan	-8.34091
dem	-8.3415
▁dafür	-8.34302
mo	-8.34446
▁2020	-8.35242
7	-8.35446
gabe	-8.35668
lang	-8.36129
▁heute	-8.36248
▁su	-8.36323
aktion	-8.36528
ic	-8.3655
leicht	-8.36658
▁bü	-8.36875
▁verein	-8.36938
abend	-8.37273
▁sollen	-8.37428
schein	-8.37456
▁woche	-8.3751
feld	-8.37512
▁bu	-8.3754
▁6	-8.37563
schl	-8.376
schluss	-8.37836
lauf	-8.37986
▁voll	-8.3807
▁kommt	-8.38082
▁steht	-8.38198
▁jede	-8.38225
▁deutlich	-8.38231
mut	-8.38318
preis	-8.38466
▁nächste	-8.38634
▁fall	-8.38651
org	-8.38716
6	-8.38772
▁gleich	-8.38865
▁5	-8.39069
▁kl	-8.39277
▁gab	-8.39305
▁also	-8.39501
▁bisher	-8.39633
staat	-8.39643
▁tr	-8.39662
amt	-8.39816
▁stark	-8.39922
▁op	-8.39973
markt	-8.40074
bereit	-8.40079
stieg	-8.40313
▁do	-8.40419
ant	-8.40451
▁50	-8.40725
pro	-8.40922
tri	-8.40951
io	-8.40983
▁10	-8.40993
ring	-8.41026
▁einmal	-8.4105
▁pandemie	-8.41125
▁freitag	-8.41182
▁leben	-8.41484
star	-8.41536
stellung	-8.41626
scheid	-8.41928
stadt	-8.41971
schlag	-8.42236
fo	-8.42301
▁eu	-8.42344
zeug	-8.42351
▁15	-8.42456
ling	-8.42491
ierung	-8.42544
do	-8.4255
▁deutschen	-8.4271
familie	-8.42741
▁wäre	-8.42923
▁test	-8.43031
tro	-8.43107
▁start	-8.43121
wasser	-8.43263
▁str	-8.43418
pflicht	-8.43615
▁dar	-8.4366
va	-8.44222
▁regel	-8.44333
▁jedoch	-8.44431
▁davon	-8.44433
▁jo	-8.445
genommen	-8.44858
▁bild	-8.44965
▁weg	-8.45341
▁dienstag	-8.46159
grund	-8.46303
ack	-8.46375
▁hinter	-8.46558
up	-8.46845
▁lange	-8.47022
▁bekannt	-8.47023
▁wollen	-8.47064
test	-8.47235
if	-8.4724
▁ca	-8.47291
bereich	-8.47557
▁hei	-8.47754
9	-8.47763
ok	-8.47841
pi	-8.48014
rück	-8.48046
▁genau	-8.48048
legen	-8.4809
ca	-8.48195
▁7	-8.48245
bach	-8.48788
▁ihm	-8.488
▁beiden	-8.48935
man	-8.49143
▁sonntag	-8.49236
ow	-8.49236
blick	-8.493
▁erste	-8.49306
▁18	-8.49391
setzt	-8.49495
▁sport	-8.49636
fahrer	-8.49697
schied	-8.49744
▁team	-8.4977
gericht	-8.50067
▁alt	-8.50072
▁wochen	-8.50096
▁wahl	-8.50188
▁fuß	-8.50588
▁donnerstag	-8.51041
▁zudem	-8.51211
▁klar	-8.51302
dienst	-8.51497
fahren	-8.51525
▁lassen	-8.51594
bel	-8.51762
▁frage	-8.5211
▁mittwoch	-8.52417
igung	-8.52538
«	-8.52753
▁erklärt	-8.5288
gemeinde	-8.52883
▁letzten	-8.53001
das	-8.53087
▁einfach	-8.53322
del	-8.53628
äh	-8.53803
▁darauf	-8.5387
betrieb	-8.53873
▁arbeits	-8.53917
▁hand	-8.54063
stoff	-8.54243
▁während	-8.54282
trainer	-8.54303
▁zwar	-8.54757
go	-8.55347
▁hatten	-8.55421
▁liegt	-8.55713
schwe	-8.55718
stehen	-8.55734
▁alles	-8.55866
▁geld	-8.55896
▁zeigt	-8.56186
▁vi	-8.56195
▁zehn	-8.56197
ständig	-8.56418
schloss	-8.56721
stein	-8.56728
▁8	-8.5677
▁lang	-8.56868
setzen	-8.57129
saison	-8.5715
meister	-8.57168
▁mehrere	-8.57189
▁kar	-8.57699
impfung	-8.57903
bei	-8.58227
tritt	-8.58269
▁mich	-8.58283
hilfe	-8.58615
▁neben	-8.5862
▁besser	-8.58627
projekt	-8.59102
▁insgesamt	-8.59102
▁würde	-8.5959
druck	-8.59603
gesundheits	-8.60168
▁stehen	-8.60274
▁wissen	-8.60596
▁welche	-8.60603
hi	-8.6087
inzidenz	-8.61098
▁klima	-8.61099
ruf	-8.61513
▁mark	-8.6181
▁samstag	-8.6262
ob	-8.62624
haft	-8.62987
fach	-8.62997
igkeit	-8.63133
griff	-8.63137
▁partei	-8.6324
▁mir	-8.63348
▁gar	-8.63515
▁personen	-8.63697
▁9	-8.63933
sicher	-8.64167
voll	-8.64456
▁problem	-8.64688
▁beginn	-8.64738
affen	-8.64963
▁deutsche	-8.65003
kanzler	-8.65213
lieb	-8.65213
angebot	-8.65281
bank	-8.658
hm	-8.66023
krise	-8.66349
park	-8.66385
zeichne	-8.66801
▁geimpft	-8.66826
wie	-8.67135
▁einge	-8.67214
▁frau	-8.67244
bu	-8.67279
last	-8.67319
▁berichtet	-8.67338
▁sogar	-8.67343
▁erfolg	-8.67713
system	-8.67871
▁mai	-8.68024
▁lebens	-8.68071
führung	-8.68411
rit	-8.68446
itz	-8.68492
treten	-8.6851
▁gesamt	-8.69034
schritt	-8.69084
▁gemeinsam	-8.69501
▁besuch	-8.69549
▁einsatz	-8.69655
stell	-8.69765
ance	-8.6989
▁200	-8.69924
fried	-8.70183
möglich	-8.7064
sicherheit	-8.70775
▁gerade	-8.71167
ton	-8.71213
▁junge	-8.71734
gesetz	-8.71858
schau	-8.72603
dauer	-8.7266
wind	-8.72823
▁sozial	-8.72846
▁weniger	-8.72942
ip	-8.7331
gewinn	-8.73545
vo	-8.74226
▁sieben	-8.74452
funk	-8.74621
▁jahres	-8.7499
▁deshalb	-8.75018
▁tor	-8.75122
▁gewesen	-8.75137
führen	-8.75138
hält	-8.75148
freund	-8.75188
▁heraus	-8.7533
▁ober	-8.75331
stelle	-8.75465
gesetzt	-8.75493
red	-8.75985
▁musste	-8.76234
▁österreich	-8.76303
▁hätten	-8.76711
infektion	-8.7689
▁später	-8.77369
▁weiß	-8.775
▁not	-8.77615
prüf	-8.78082
▁angaben	-8.78091
▁minute	-8.78098
ika	-8.78177
film	-8.78181
aub	-8.78194
mobil	-8.78712
kampf	-8.78958
▁grünen	-8.7898
steuer	-8.79316
▁süd	-8.79325
impf	-8.79418
▁fast	-8.79525
▁person	-8.79836
maßnahmen	-8.79886
▁heißt	-8.79887
mitglied	-8.79888
▁alter	-8.79973
antwort	-8.80493
gebiet	-8.80516
▁mu	-8.80845
▁impfstoff	-8.81167
▁sieht	-8.81174
▁frauen	-8.81515
sprecher	-8.82165
▁hohe	-8.8262
▁sommer	-8.8266
gesellschaft	-8.82972
▁region	-8.82974
▁gilt	-8.82984
▁nord	-8.83631
▁eng	-8.83644
▁ging	-8.83676
tru	-8.83774
bild	-8.84057
▁tagen	-8.84103
geführt	-8.84234
▁besonders	-8.84234
▁sechs	-8.84254
ott	-8.84343
▁richtig	-8.84525
bringen	-8.84996
aktie	-8.85264
▁spieler	-8.85405
ismus	-8.85678
leid	-8.85956
gleich	-8.86088
▁bleibt	-8.86157
fahrzeug	-8.86157
▁außerdem	-8.8617
▁anfang	-8.8681
▁jeder	-8.86823
▁tier	-8.86963
mon	-8.87267
▁natürlich	-8.8746
▁zunächst	-8.8746
dorf	-8.87731
reif	-8.87823
rechne	-8.879
▁ei	-8.87906
▁zweiten	-8.88026
▁würden	-8.8813
▁komm	-8.8856
▁trotz	-8.88762
▁betroffen	-8.8878
▁ebenfalls	-8.8878
▁schweiz	-8.88785
▁wollte	-8.88789
▁darüber	-8.88799
▁zuletzt	-8.89011
▁knapp	-8.89454
entwicklung	-8.90118
▁digital	-8.90118
▁finanz	-8.90119
ja	-8.90523
▁nu	-8.91082
isiert	-8.91203
▁pol	-8.9144
sache	-8.91589
▁könne	-8.92233
istisch	-8.92241
spann	-8.92326
sprech	-8.92512
▁solche	-8.9289
leistung	-8.92919
melde	-8.93226
wechsel	-8.93543
spitze	-8.93764
▁stellt	-8.9388
▁gemacht	-8.94244
▁erneut	-8.94264
▁oft	-8.94349
▁europa	-8.94398
produkt	-8.94943
schnitt	-8.94952
glück	-8.94978
handlung	-8.94978
▁120	-8.94989
▁anderem	-8.95132
bor	-8.9562
▁lag	-8.95642
▁erhalten	-8.96118
▁allein	-8.96195
äch	-8.96315
behörde	-8.96371
▁eigenen	-8.96396
sieg	-8.96724
▁beide	-8.96805
▁dezember	-8.97089
▁online	-8.97089
zentrum	-8.97089
▁bayern	-8.9709
▁covid	-8.9709
wald	-8.97227
▁september	-8.97814
▁studie	-8.97835
schätz	-8.9784
flug	-8.9795
▁spd	-8.97999
ühl	-8.98165
▁direkt	-8.98481
programm	-8.98544
kraft	-8.98554
verband	-8.98573
frei	-8.98607
ac	-8.98681
▁beispiel	-8.98761
ili	-8.98997
▁straf	-8.99204
kandidat	-8.99279
▁entscheidung	-8.99281
▁hätte	-8.99505
▁öffentlich	-9.0002
▁milliarden	-9.0002
patienten	-9.0002
ziehen	-9.00022
kehr	-9.00031
bildung	-9.00206
regel	-9.00252
▁vergleich	-9.00466
besondere	-9.00774
▁150	-9.01413
kräfte	-9.01519
▁damals	-9.01526
ministerium	-9.01552
▁geplant	-9.01579
▁acht	-9.01637
▁250	-9.01827
ium	-9.02017
▁fort	-9.02105
leben	-9.02274
▁dürfen	-9.02275
▁juli	-9.02276
über	-9.02457
▁fc	-9.0261
▁cha	-9.02679
▁möchte	-9.03039
▁geschäfts	-9.03207
führer	-9.03808
▁gegenüber	-9.03904
neu	-9.04392
▁mü	-9.04455
leiter	-9.04553
▁privat	-9.04585
wachs	-9.04988
▁110	-9.05256
situation	-9.05365
▁international	-9.05365
▁finden	-9.0538
verkehr	-9.05493
gespräch	-9.06152
maske	-9.06235
▁richtung	-9.06332
▁verletzt	-9.06362
▁verkehrs	-9.06366
ative	-9.06494
▁140	-9.06612
▁herr	-9.06747
geschäft	-9.06778
▁130	-9.06924
▁zukunft	-9.06946
▁national	-9.06948
einander	-9.06968
gelegt	-9.06991
▁trans	-9.07019
▁nie	-9.07177
▁meter	-9.07195
feier	-9.0729
ordnung	-9.07747
▁sogenannte	-9.08552
forderung	-9.08552
▁weiterhin	-9.08725
▁160	-9.08874
▁kaum	-9.08938
anlage	-9.09209
ci	-9.09239
pandemie	-9.09269
liga	-9.09303
▁juni	-9.09365
▁märz	-9.09366
▁180	-9.09369
wahl	-9.09445
ergebnis	-9.10149
▁positiv	-9.10185
▁eigentlich	-9.10185
▁führt	-9.10185
▁thema	-9.10186
▁schön	-9.10244
▁usa	-9.10303
▁kunden	-9.10326
▁wirklich	-9.11018
stück	-9.11026
▁mitarbeiter	-9.1106
▁schüler	-9.11846
gebracht	-9.11858
fiziert	-9.11875
wahr	-9.12201
▁männer	-9.12685
▁bleiben	-9.12685
▁125	-9.12701
▁stunden	-9.12702
schuss	-9.1293
▁daher	-9.13156
▁170	-9.13201
serie	-9.13307
▁punkte	-9.13502
konzern	-9.13533
▁prä	-9.13558
wende	-9.1424
dpa	-9.14325
▁oktober	-9.14387
▁zusätzlich	-9.14387
▁krank	-9.14391
▁dennoch	-9.14392
▁liefer	-9.14402
vorsitzende	-9.14413
fahrt	-9.14447
tour	-9.14456
partner	-9.14489
▁tun	-9.14508
▁bislang	-9.146
▁darf	-9.1507
treff	-9.15105
▁128	-9.15132
▁künftig	-9.15249
▁bedeute	-9.15254
▁liegen	-9.15289
▁kommende	-9.15385
▁210	-9.1592
▁höhe	-9.16101
▁lockdown	-9.16119
▁199	-9.16147
▁114	-9.16323
▁230	-9.16384
bruch	-9.16505
▁2019	-9.16534
▁115	-9.16722
wagen	-9.16795
▁131	-9.16818
▁118	-9.16824
▁beruf	-9.16897
▁139	-9.16967
▁betont	-9.17104
isierung	-9.17336
▁112	-9.17456
▁197	-9.17537
▁240	-9.17573
▁117	-9.17639
▁116	-9.17663
lebt	-9.17695
▁132	-9.17751
▁145	-9.17871
wehr	-9.17996
▁227	-9.18328
▁173	-9.18382
▁280	-9.18437
▁127	-9.18467
▁237	-9.18469
▁126	-9.18502
▁198	-9.18546
▁146	-9.18555
▁225	-9.18623
▁113	-9.18626
▁164	-9.18666
position	-9.18774
▁bestätigt	-9.18774
▁feuerwehr	-9.18774
▁149	-9.18775
▁bald	-9.18799
▁mannschaft	-9.18802
▁134	-9.18848
fläche	-9.18855
▁möglichkeit	-9.18885
▁290	-9.18924
▁144	-9.18932
▁162	-9.19066
▁285	-9.19194
▁275	-9.19249
▁138	-9.19365
▁nieder	-9.19406
▁148	-9.1942
▁256	-9.19431
▁124	-9.1948
▁165	-9.19524
▁175	-9.19573
▁213	-9.19588
variante	-9.19674
▁kontakt	-9.19674
▁270	-9.19731
▁172	-9.19775
▁121	-9.19834
▁143	-9.19834
▁147	-9.1988
▁251	-9.19896
▁171	-9.19913
▁216	-9.19959
▁298	-9.19963
▁178	-9.20003
▁295	-9.20004
▁220	-9.20012
▁273	-9.2013
▁238	-9.20158
▁271	-9.20176
▁236	-9.20203
▁297	-9.20224
▁224	-9.20255
▁136	-9.20332
▁135	-9.20339
▁122	-9.20371
▁133	-9.20407
▁265	-9.20414
▁195	-9.20417
▁142	-9.20417
ündig	-9.20418
▁228	-9.20422
▁262	-9.20425
▁166	-9.20455
▁176	-9.20504
▁244	-9.20514
▁111	-9.2052
▁163	-9.20528
▁223	-9.20546
▁245	-9.20573
▁coronavirus	-9.20584
institut	-9.20584
▁video	-9.20585
▁214	-9.20746
▁185	-9.20846
▁wohnung	-9.20865
▁260	-9.20908
▁299	-9.20912
▁296	-9.20937
▁278	-9.20941
▁269	-9.21036
▁106	-9.21038
▁267	-9.21044
▁282	-9.2107
▁266	-9.21073
▁222	-9.21154
▁261	-9.21188
▁249	-9.21202
▁233	-9.21205
▁192	-9.21215
▁129	-9.2122
▁blu	-9.21222
▁272	-9.21225
▁259	-9.21251
▁257	-9.21257
▁231	-9.21259
▁221	-9.21262
▁119	-9.21292
▁232	-9.21294
▁218	-9.21307
▁219	-9.21338
▁254	-9.2134
▁123	-9.21343
▁215	-9.21344
▁169	-9.21347
▁müsse	-9.21355
▁253	-9.21359
▁141	-9.21442
▁dürfte	-9.21501
▁januar	-9.21501
prozess	-9.21505
▁winter	-9.2151
▁verschiedene	-9.21517
morgen	-9.21573
▁211	-9.21627
▁279	-9.2189
▁292	-9.21898
▁277	-9.219
▁294	-9.2192
▁276	-9.21929
▁288	-9.21933
▁293	-9.21935
▁289	-9.2195
▁196	-9.21952
▁287	-9.21954
▁268	-9.21962
▁274	-9.21974
▁286	-9.21984
▁291	-9.21988
▁229	-9.22015
▁239	-9.22033
▁284	-9.22034
▁190	-9.22047
▁283	-9.22053
▁264	-9.22059
▁226	-9.22061
▁235	-9.22075
▁263	-9.22079
▁281	-9.22104
▁234	-9.22124
▁248	-9.22127
▁247	-9.22145
▁137	-9.22172
▁258	-9.22176
▁246	-9.22178
▁242	-9.22203
▁255	-9.22223
▁243	-9.22247
▁252	-9.22257
▁168	-9.22277
▁152	-9.22279
▁241	-9.22296
▁167	-9.22298
▁217	-9.22299
▁179	-9.22335
▁212	-9.22347
▁177	-9.22348
▁108	-9.2236
▁musik	-9.2243
▁174	-9.22431
▁161	-9.22454
▁kurs	-9.22518
▁dank	-9.22728
▁brand	-9.2279
▁102	-9.22849
▁189	-9.22951
▁183	-9.23151
▁november	-9.23361
▁verkauf	-9.23368
▁194	-9.23706
▁103	-9.23741
▁pri	-9.23767
▁193	-9.23786
▁staats	-9.23887
▁156	-9.23892
seite	-9.23986
▁187	-9.24113
▁104	-9.24128
▁101	-9.24199
▁presse	-9.24305
dollar	-9.24308
leute	-9.24389
▁181	-9.2447
▁182	-9.24489
part	-9.24565
▁186	-9.24575
▁105	-9.24632
▁107	-9.24785
▁191	-9.24993
▁157	-9.2501
▁155	-9.25049
▁204	-9.25138
▁gast	-9.25156
▁203	-9.25202
▁184	-9.25233
▁188	-9.25256
▁erwartet	-9.25257
▁entsprechend	-9.25259
grenze	-9.25262
▁höher	-9.25282
veranstaltung	-9.25299
verfahren	-9.25594
▁109	-9.25961
▁158	-9.2597
▁154	-9.26086
medizin	-9.26219
mäßig	-9.26219
modell	-9.2629
▁2022	-9.26656
▁207	-9.26784
▁206	-9.26851
▁205	-9.26866
▁159	-9.2696
▁151	-9.26986
▁153	-9.27093
▁komplett	-9.2719
▁gehört	-9.2719
▁medien	-9.27206
stoß	-9.27212
▁super	-9.2728
stärke	-9.27293
zwischen	-9.27416
▁unfall	-9.27516
▁union	-9.27583
▁209	-9.2779
▁208	-9.27826
lösung	-9.28177
▁anders	-9.2838
▁bund	-9.28839
▁mindestens	-9.2916
▁tatsächlich	-9.2916
▁fordert	-9.29161
▁volk	-9.29162
hersteller	-9.29176
▁moment	-9.2927
müll	-9.29353
▁treffen	-9.29361
▁energie	-9.30161
▁normal	-9.30161
▁laufe	-9.30173
▁luft	-9.30185
▁erreicht	-9.30293
▁folgen	-9.3046
▁sofort	-9.31174
▁februar	-9.32191
fällt	-9.32191
ziehung	-9.32192
kunde	-9.32219
▁zahlreiche	-9.32256
▁umwelt	-9.32368
▁sinn	-9.32589
körper	-9.33225
▁eltern	-9.33229
setzung	-9.3323
fraktion	-9.34145
bedingt	-9.34267
füll	-9.34272
▁natur	-9.34279
maß	-9.34713
▁sagen	-9.34859
gänge	-9.35336
merk	-9.35343
partei	-9.36174
▁persönlich	-9.3638
▁europäische	-9.3638
▁mittlerweile	-9.3638
▁termin	-9.36421
motor	-9.36557
klasse	-9.36689
▁fans	-9.36712
▁wochenende	-9.3675
streit	-9.36779
▁april	-9.37455
▁findet	-9.37455
▁blieb	-9.37725
gegangen	-9.37812
gebaut	-9.38492
▁jugend	-9.38536
plätze	-9.38542
kämpfe	-9.38542
▁zeigen	-9.38593
krimi	-9.38705
branche	-9.38823
▁gründe	-9.38869
▁straßen	-9.39008
▁letzte	-9.39043
graf	-9.39046
nehme	-9.39353
ünde	-9.39599
gefunden	-9.39644
▁robert	-9.3965
▁erfolgreich	-9.39725
▁daran	-9.40161
▁politische	-9.40348
gefahr	-9.40405
▁wolf	-9.40793
▁sorgt	-9.40823
▁opfer	-9.40884
steht	-9.40979
risiko	-9.41876
öffnung	-9.41876
bewerb	-9.4189
▁wider	-9.41892
▁trotzdem	-9.41918
krieg	-9.42017
▁linke	-9.42092
▁bö	-9.42098
▁sprach	-9.42703
organisation	-9.43012
▁weltweit	-9.43154
änderung	-9.43173
▁bestimmt	-9.43214
gezogen	-9.43447
räume	-9.4369
schließen	-9.4416
▁kritik	-9.44162
gebäude	-9.44162
▁china	-9.44164
▁schlecht	-9.44166
▁erstmals	-9.44166
haltung	-9.44213
runde	-9.44476
▁versucht	-9.44682
messe	-9.44957
industrie	-9.45324
▁schwierig	-9.45325
▁jeweil	-9.45325
▁sorgen	-9.45359
▁qual	-9.4549
▁namen	-9.45595
▁nähe	-9.45735
linie	-9.46018
▁einzelne	-9.46062
parlament	-9.46501
▁august	-9.46501
▁länger	-9.46501
övp	-9.46506
hänge	-9.46526
▁gemeldet	-9.46532
▁experten	-9.46584
▁new	-9.46601
arzt	-9.46613
antrag	-9.46682
garten	-9.4671
▁bundesregierung	-9.46711
▁gelten	-9.47036
▁schließlich	-9.47691
▁schwarz	-9.47691
▁veröffentlicht	-9.47691
▁zwölf	-9.47691
extrem	-9.47693
▁münchen	-9.47693
▁bietet	-9.47694
▁foto	-9.47705
schütze	-9.47737
fassung	-9.47759
konzept	-9.48896
verletzung	-9.48897
▁dritten	-9.48898
schrift	-9.48905
▁kunst	-9.48911
fuhr	-9.48946
greifen	-9.4904
▁beschäftigt	-9.50115
konferenz	-9.50115
niedrig	-9.50117
▁beispielsweise	-9.50117
▁einwohner	-9.50143
▁mutter	-9.50158
▁darum	-9.50374
welt	-9.50865
doppel	-9.51353
bindung	-9.51355
▁virus	-9.51356
▁post	-9.51949
pause	-9.52405
▁außer	-9.52576
verwaltung	-9.526
▁hamburg	-9.52602
häuser	-9.52604
klinik	-9.52608
finale	-9.52623
▁geschlossen	-9.52626
▁kontroll	-9.52739
▁landkreis	-9.52809
kollege	-9.53123
bundesliga	-9.53566
technologie	-9.53866
▁italien	-9.53866
agentur	-9.53867
▁ähnlich	-9.53869
▁rahmen	-9.5387
▁christ	-9.5387
nachmittag	-9.53873
höre	-9.53909
▁jüngst	-9.55148
▁ehemalige	-9.55148
▁dagegen	-9.55152
▁gold	-9.55168
▁000	-9.55222
▁müsste	-9.55262
deutsch	-9.55761
csu	-9.55819
▁liebe	-9.55877
▁dadurch	-9.56447
▁frankfurt	-9.56447
▁unterstützung	-9.56447
▁zumindest	-9.56447
technik	-9.56447
▁ebenso	-9.56447
▁internet	-9.56448
versorgung	-9.56449
▁merkel	-9.56462
▁erreichen	-9.56506
▁größer	-9.5654
▁breit	-9.56593
▁jene	-9.566
versuch	-9.57081
▁städte	-9.57732
▁künstler	-9.57762
▁bürgermeister	-9.57762
club	-9.57779
erfolg	-9.58896
▁gesundheit	-9.589
▁geworden	-9.59096
▁außen	-9.59097
▁stamm	-9.59105
sammel	-9.59107
▁köln	-9.5912
bewegung	-9.59309
▁hoffe	-9.59329
trieb	-9.59596
karte	-9.60205
marke	-9.60351
▁offiziell	-9.60447
interview	-9.60447
▁beteiligt	-9.60448
▁helfen	-9.60448
▁getestet	-9.60451
▁täter	-9.60454
▁jugendliche	-9.60454
brü	-9.6046
einrichtung	-9.61111
▁erfahrung	-9.61817
bedingungen	-9.61817
▁übrig	-9.61817
kommission	-9.6182
teilnehmer	-9.61821
training	-9.61822
unterricht	-9.62108
▁trau	-9.62732
▁elektro	-9.63206
verbot	-9.63209
spruch	-9.63221
▁aussage	-9.63276
dreh	-9.63645
abgeordnete	-9.63702
▁spät	-9.63934
kamera	-9.63958
▁bitte	-9.64289
gefährlich	-9.64614
▁erzählt	-9.64614
▁notwendig	-9.64614
▁thomas	-9.64614
▁könig	-9.64615
▁schrieb	-9.6462
▁mitteilte	-9.64645
▁neuinfektionen	-9.66046
▁kanton	-9.66047
▁zuschauer	-9.66071
gestalt	-9.66105
fähig	-9.66887
letzt	-9.67202
händler	-9.67492
strategie	-9.67492
kreuz	-9.67493
▁gesagt	-9.67494
▁herbst	-9.67504
▁wetter	-9.6751
▁nrw	-9.67534
tausend	-9.67763
▁einzige	-9.67766
▁einzel	-9.68086
initiative	-9.68963
plattform	-9.68963
▁gleichzeitig	-9.68963
▁massiv	-9.68963
▁förder	-9.68964
▁michael	-9.68964
bewusst	-9.68964
vertreter	-9.68965
spiegel	-9.68968
▁bringt	-9.68982
papier	-9.68987
strecke	-9.69595
q	-9.70155
▁negativ	-9.70456
journal	-9.70456
▁niemand	-9.70457
▁produktion	-9.70462
▁glaube	-9.70468
▁fdp	-9.70477
stock	-9.70513
▁modern	-9.70564
nummer	-9.70981
▁russland	-9.7197
▁häufig	-9.7197
▁nimmt	-9.71971
▁quartal	-9.71971
▁nötig	-9.71971
gewählt	-9.71972
▁braucht	-9.71972
▁interesse	-9.71977
▁trump	-9.71984
wurf	-9.72004
▁beamten	-9.72025
▁telefon	-9.73509
koalition	-9.73509
▁brauchen	-9.7351
▁christian	-9.7351
stream	-9.73601
▁gerne	-9.73612
ärzte	-9.73619
phase	-9.73669
▁bundestagswahl	-9.75071
▁entwickelt	-9.75071
▁unbekannte	-9.75071
▁krankenhaus	-9.75073
▁hingegen	-9.75074
klärung	-9.75076
wöhn	-9.75076
▁verantwortlich	-9.75079
▁anschließend	-9.7508
▁unterwegs	-9.75082
stätte	-9.75099
play	-9.75124
kilometer	-9.76659
▁unterstützt	-9.76659
▁weihnachts	-9.76659
▁nachhaltig	-9.76662
▁nutzen	-9.76664
sätze	-9.76687
sprache	-9.77113
▁völlig	-9.78272
verhältnis	-9.78272
▁hundert	-9.78273
▁genug	-9.78276
▁ergebnisse	-9.78342
kontrolle	-9.79729
schild	-9.79855
▁erhöht	-9.79911
▁geöffnet	-9.79911
▁hoffnung	-9.79911
▁unterstütze	-9.79911
▁zusammenhang	-9.79911
gesprochen	-9.79912
▁links	-9.79912
stadion	-9.79916
geburt	-9.79934
▁britische	-9.79938
▁falsch	-9.79942
▁schaden	-9.79955
klub	-9.80035
beratung	-9.81174
aatsanwaltschaft	-9.81578
struktur	-9.81578
konzert	-9.81579
▁sachsen	-9.81579
▁detail	-9.81582
▁gehören	-9.81593
temperatur	-9.83272
▁verfügung	-9.83272
▁update	-9.83273
niveau	-9.83274
▁folgt	-9.83275
▁laschet	-9.83276
▁zentral	-9.833
geschlagen	-9.8383
zogen	-9.84361
▁idee	-9.84543
▁hinweis	-9.84738
▁kritisiert	-9.84997
▁nämlich	-9.84997
▁gefühl	-9.85
▁unterschiedlich	-9.85003
▁jemand	-9.85003
gewiesen	-9.85006
kirchen	-9.85025
stufe	-9.85193
bundes	-9.8536
service	-9.86751
▁stattfinden	-9.86751
▁irgendw	-9.86751
▁täglich	-9.86751
▁firmen	-9.86751
▁tochter	-9.86764
getragen	-9.86856
verlust	-9.87431
▁freiwillig	-9.88537
▁quarantäne	-9.88537
▁gezeigt	-9.88537
geschrieben	-9.88538
▁lokal	-9.88541
rechnung	-9.88548
▁gross	-9.88562
seitig	-9.88684
geräte	-9.88982
▁wolle	-9.90212
▁jahrzehnt	-9.90355
▁konkret	-9.90355
▁längst	-9.90355
fällig	-9.90355
gemeinschaft	-9.90355
▁partie	-9.90505
politisch	-9.91027
verdächtig	-9.92207
▁lediglich	-9.92207
▁unabhängig	-9.92207
▁premier	-9.92207
▁israel	-9.92207
pläne	-9.92208
meldung	-9.9221
treiben	-9.92251
▁wild	-9.92251
direktor	-9.92368
manager	-9.92388
experte	-9.93973
▁tradition	-9.94094
▁twitter	-9.94094
diskussion	-9.94094
▁salzburg	-9.94094
▁stuttgart	-9.94094
▁öffnen	-9.94094
vorwürfe	-9.94094
▁frankreich	-9.94094
ländische	-9.94094
▁rettungs	-9.94094
▁dortmund	-9.94096
wachstum	-9.94097
effekt	-9.94099
▁söder	-9.941
untersuchung	-9.94103
viertel	-9.94657
▁allgemein	-9.96017
material	-9.96017
▁entfernt	-9.96017
zieht	-9.96019
fährt	-9.96019
museum	-9.96021
▁reagiert	-9.96029
▁fertig	-9.96043
städt	-9.96131
paket	-9.96262
republik	-9.97977
▁angeklagt	-9.97977
▁genutzt	-9.97977
▁grundsätzlich	-9.97977
anbieter	-9.97979
forschung	-9.9798
▁entgegen	-9.97982
märkte	-9.97986
geschehen	-9.97989
▁brachte	-9.98009
▁mädchen	-9.99977
▁plötzlich	-9.99977
▁publikum	-9.99977
▁schreibt	-9.99978
▁unklar	-9.99978
verteidiger	-10.0202
▁restaurant	-10.0202
▁verhindern	-10.0202
▁stabil	-10.0202
▁begann	-10.0202
fordern	-10.0202
zentren	-10.0202
▁arbeitgeber	-10.041
▁alkohol	-10.041
▁vertrauen	-10.041
▁genannt	-10.041
schläge	-10.0416
beschränkungen	-10.0623
▁auswirkungen	-10.0623
▁ermittlungen	-10.0623
▁leipzig	-10.0623
amerikanisch	-10.0623
▁gewisse	-10.0623
▁fokus	-10.0623
▁ältere	-10.0623
bedarf	-10.0623
bilanz	-10.0625
▁global	-10.084
„	-10.3832
(	-11.0922
–	-11.3906
